{"tensorflowjs_models/localStorage://model/info":"{\"dateSaved\":\"2019-12-12T16:21:34.344Z\",\"modelTopologyType\":\"JSON\",\"modelTopologyBytes\":1471,\"weightSpecsBytes\":370,\"weightDataBytes\":1736}","tensorflowjs_models/localStorage://model/model_topology":"{\"class_name\":\"Sequential\",\"config\":{\"name\":\"sequential_1\",\"layers\":[{\"class_name\":\"Dense\",\"config\":{\"units\":8,\"activation\":\"linear\",\"use_bias\":true,\"kernel_initializer\":{\"class_name\":\"VarianceScaling\",\"config\":{\"scale\":1,\"mode\":\"fan_avg\",\"distribution\":\"normal\",\"seed\":null}},\"bias_initializer\":{\"class_name\":\"Zeros\",\"config\":{}},\"kernel_regularizer\":null,\"bias_regularizer\":null,\"activity_regularizer\":null,\"kernel_constraint\":null,\"bias_constraint\":null,\"name\":\"dense_Dense1\",\"trainable\":true,\"batch_input_shape\":[null,33],\"dtype\":\"float32\"}},{\"class_name\":\"Dense\",\"config\":{\"units\":8,\"activation\":\"linear\",\"use_bias\":true,\"kernel_initializer\":{\"class_name\":\"VarianceScaling\",\"config\":{\"scale\":1,\"mode\":\"fan_avg\",\"distribution\":\"normal\",\"seed\":null}},\"bias_initializer\":{\"class_name\":\"Zeros\",\"config\":{}},\"kernel_regularizer\":null,\"bias_regularizer\":null,\"activity_regularizer\":null,\"kernel_constraint\":null,\"bias_constraint\":null,\"name\":\"dense_Dense2\",\"trainable\":true}},{\"class_name\":\"Dense\",\"config\":{\"units\":10,\"activation\":\"softmax\",\"use_bias\":true,\"kernel_initializer\":{\"class_name\":\"VarianceScaling\",\"config\":{\"scale\":1,\"mode\":\"fan_avg\",\"distribution\":\"normal\",\"seed\":null}},\"bias_initializer\":{\"class_name\":\"Zeros\",\"config\":{}},\"kernel_regularizer\":null,\"bias_regularizer\":null,\"activity_regularizer\":null,\"kernel_constraint\":null,\"bias_constraint\":null,\"name\":\"dense_Dense3\",\"trainable\":true}}]},\"keras_version\":\"tfjs-layers 1.4.0\",\"backend\":\"tensor_flow.js\"}","tensorflowjs_models/localStorage://model/weight_specs":"[{\"name\":\"dense_Dense1/kernel\",\"shape\":[33,8],\"dtype\":\"float32\"},{\"name\":\"dense_Dense1/bias\",\"shape\":[8],\"dtype\":\"float32\"},{\"name\":\"dense_Dense2/kernel\",\"shape\":[8,8],\"dtype\":\"float32\"},{\"name\":\"dense_Dense2/bias\",\"shape\":[8],\"dtype\":\"float32\"},{\"name\":\"dense_Dense3/kernel\",\"shape\":[8,10],\"dtype\":\"float32\"},{\"name\":\"dense_Dense3/bias\",\"shape\":[10],\"dtype\":\"float32\"}]","tensorflowjs_models/localStorage://model/weight_data":"mMOuvvSfNz14xqY+PszYPT/6G77dugA//r0Qv63kuj4Uuzu+GmzIvg46Dz4L3Q8/Jt0QP6wBl739xfo+7jQSvgXV6D1Dm9S+jR7iPuhPoT5w7149hFrtvk45vj68Frm+aCAMPut6xL7zufE+1r/3vgRFmT0xaO4+eR0Sv0Ls3r7bK/w+M142PpeS1r4zaPw+GtDXvRQ0ej49z6u98l62vpLBDj8LI4y+879UPgWJOb7Hme28xZgIP5bbOb4mPNO+aLewvid73j5/TVs+hei9PsDn9r6ZoTI+DfQHP67OQb+8SVy+LWtKvg1CKj6jRJ++PEjnvkF1Ij9Ds7W+6806Pm1IDD+qkco+/tIIvzMDGL++I4k+cs5BPgG42r4Wa+O+i1BxvKPgkL6a6LY+IPtyPmmZ774W5oA+d7ELPtF3KL4fFGc+TayEviBJ576ZU3U9WmaKvMDHyj4W83S+1+IAvmcIlb44NPs8pqOPPrFuC7+ERgq+ZkknPvmm+b5LW0M+3Kjovs6ziz4LMwk+E++1PgtyBr6x16M+mWeIPgtbcL/O0Bi+BCAmvaNYqT7PYTy/yFIMPZjC8j7NfDu/rNBjPeU9/LwySys+fOIsPoTwPr81/96+HSgKP5fEIb6rIgs/7hi1Puk0Eb5qpO87eGrIPth6/D7cA7a+OHM2PtkcRT6zs8w9ILnevskiYbwvZYG+Ka4TP0V91Ty/Xty+N+jgPa1ct77PNr+82XjaPpLZ+zwyxaS+xCgLP6fq+L2Ii7s+B3B+Pt79zT5DRMi+2eQNP5KZWb4UdX8+gLTwvVm9lr466au+YsZkPuyW7L5sqw6/fw6FPhCQx75ftbO+sPvqPrJUMr55hwC9yvS9vlvnOj9gA+o+wyr9vvtGLT03F/E+XjtIP42wBb92XPe+6AEnP1mxLz9VrQE/zwlYP1iwHb/J9uG+qMOMvmm83T5bHj0+7zb7PUCTbr69Cww+pKMavhaLd77F6Eo/ZRxJv7Hf/T4xGrI+S5hDvstMOT/5Qt0+lyCCvnaos74ZY9g+kBcxv1le+T6Ivke/oIvfPoomMj9r8yO/dwMov4py4j09xsK+4kNqPo+yB78xKbA+jUBVP/K/eT5tA94+gzgKvg1NPT/eqms+crGTPskP670Ji4i+NAMUvvDfPL+FqNY+ExtsPsTLwz4Wi70+Qpu4Pp5Gs74J1cE+gOlSvo1TB74AJ6G+LhddPVLGFr4s3Lu+LK5pPoGxDj8s6o09PTQuv/m6JT/iIr4+bCvQvmYcR70A0Ss/6T2rvXbczr5pGcw+36UKP5JWNb7Qfgg++HCkPtcjF70EMYi96MzLvsnvrz5EHdc+R2N8PudI774ifJI+kq2vvgBEXj7NJeC+fm0Kv3DeRr0wdHU+Y1eFvs8MSb1j4wg+abpsvny+Nz7Hxlk+N+XvvaGhFr4zKiA+wOZ9OzElGD7I78c+9jBNP4eXLz8rDYA/HlB6vo6KdT8KhPu9T4dsP/LOjb8renY/4A1nv9bLLL74yUI+M+ooP9Q+3L0YBmG/VwCnvUwXab9WXh+/7Qxbvw60KT9E6Vi/1/9Zvu0NID/1HBO941AzvtIAOL/10sM+6qR/vz68zT45Cbs+M5g4vsk52T4D1TO+jjDcPpsP1D6b7SW/jzRcPxWnOj9UpKU+c5nHvh74ST9Tyla/jRsRvzoYeD4fIDQ/DDKHvzwFaD/wGJ4+hIyIv9JMeb9EZy2/ETIEv0pHAT+OPc8+xOOFvsWOqT6xKKw+fofWPjrcmD6g2LA+iXGGv3F5CT/jvS+/UBTyvffasj0x7bi+u0JsvuwxCD6cxxm+Bu9RPfe36D0uEeA+OXvkPUMA5z5CO7E91iY6PdJzUb+zzMu+LmuvPv3ikL7Oq4Q/tLkgvwZii70Xtz6/Oh5DPmIqNj8H1rK+fVnjPsb6oL7tXko+m/1gvorkCD6fSCY/ZIQmv8POej9l4Ic9Mmxgv0y1cL725Ku+mrMkv0neVj51HeQ+U2zFPdRw577u27s+IovcPr8vTL8SD9i+Q0ajvmY53774wHa/PvRWvzFh8D6OXK2+NWAYPuLrmr4gDf48LCKBP/TMKL/3Pze/lU8zP77aRb6fAqk+d5HGvpVHC7+Knd0+FNEHP5L7U7/obEA/eeSNPpo97L4MuRo//gUPv045tb64kAQ/4MrFvU1yQr9bd92+pOQ/vRegbj6RK1Q/ORRsvkiDaj/LqXE/RcNGv20bz77+XZC930/YPmwJgD8tU4a/Imcqv0PgazxPgw2+smHvvkKTqr6PS3y+BOABvYoAKT4xZgK7b8A4vbmVmz4=","tensorflowjs_models/localStorage://model/model_metadata":"{\"format\":\"layers-model\",\"generatedBy\":\"TensorFlow.js tfjs-layers v1.4.0\",\"convertedBy\":null}"}