{"tensorflowjs_models/localStorage://model/info":"{\"dateSaved\":\"2019-12-11T15:27:10.511Z\",\"modelTopologyType\":\"JSON\",\"modelTopologyBytes\":1470,\"weightSpecsBytes\":368,\"weightDataBytes\":1276}","tensorflowjs_models/localStorage://model/model_topology":"{\"class_name\":\"Sequential\",\"config\":{\"name\":\"sequential_1\",\"layers\":[{\"class_name\":\"Dense\",\"config\":{\"units\":8,\"activation\":\"linear\",\"use_bias\":true,\"kernel_initializer\":{\"class_name\":\"VarianceScaling\",\"config\":{\"scale\":1,\"mode\":\"fan_avg\",\"distribution\":\"normal\",\"seed\":null}},\"bias_initializer\":{\"class_name\":\"Zeros\",\"config\":{}},\"kernel_regularizer\":null,\"bias_regularizer\":null,\"activity_regularizer\":null,\"kernel_constraint\":null,\"bias_constraint\":null,\"name\":\"dense_Dense1\",\"trainable\":true,\"batch_input_shape\":[null,22],\"dtype\":\"float32\"}},{\"class_name\":\"Dense\",\"config\":{\"units\":8,\"activation\":\"linear\",\"use_bias\":true,\"kernel_initializer\":{\"class_name\":\"VarianceScaling\",\"config\":{\"scale\":1,\"mode\":\"fan_avg\",\"distribution\":\"normal\",\"seed\":null}},\"bias_initializer\":{\"class_name\":\"Zeros\",\"config\":{}},\"kernel_regularizer\":null,\"bias_regularizer\":null,\"activity_regularizer\":null,\"kernel_constraint\":null,\"bias_constraint\":null,\"name\":\"dense_Dense2\",\"trainable\":true}},{\"class_name\":\"Dense\",\"config\":{\"units\":7,\"activation\":\"softmax\",\"use_bias\":true,\"kernel_initializer\":{\"class_name\":\"VarianceScaling\",\"config\":{\"scale\":1,\"mode\":\"fan_avg\",\"distribution\":\"normal\",\"seed\":null}},\"bias_initializer\":{\"class_name\":\"Zeros\",\"config\":{}},\"kernel_regularizer\":null,\"bias_regularizer\":null,\"activity_regularizer\":null,\"kernel_constraint\":null,\"bias_constraint\":null,\"name\":\"dense_Dense3\",\"trainable\":true}}]},\"keras_version\":\"tfjs-layers 1.4.0\",\"backend\":\"tensor_flow.js\"}","tensorflowjs_models/localStorage://model/weight_specs":"[{\"name\":\"dense_Dense1/kernel\",\"shape\":[22,8],\"dtype\":\"float32\"},{\"name\":\"dense_Dense1/bias\",\"shape\":[8],\"dtype\":\"float32\"},{\"name\":\"dense_Dense2/kernel\",\"shape\":[8,8],\"dtype\":\"float32\"},{\"name\":\"dense_Dense2/bias\",\"shape\":[8],\"dtype\":\"float32\"},{\"name\":\"dense_Dense3/kernel\",\"shape\":[8,7],\"dtype\":\"float32\"},{\"name\":\"dense_Dense3/bias\",\"shape\":[7],\"dtype\":\"float32\"}]","tensorflowjs_models/localStorage://model/weight_data":"FzMfP3aOwz5fHcw+By24vrs9Hr9D5ci+PGhNPjaXTL5uZdo+bvqdvmRyBz8SoKU9utgsP3AGLr8bt90+gILUPs/aij6QWSs9LbnTvQIp+j5ZrBw+jSYjvzOGBj5Awm4+69ogv+AnHz+/RqA+tzROPtY+dL5ZaBI/iyVxPvcktj6Bgy8/B21EP499KD5T07q+l94aPiPlh75lQiW8yYnnvrDWyz6eZek+Z5eLPn0e0b421+y+1F05vqhXR71wPSW/eM4av4HACD8lYAQ/QDsnvYF4cr5C9wc/2UXZPhHSDD+sHvk9SOJDP7wgOD4ugAi/a0gSvv9xNr7mdMu9MWSWvFNHOz9DdZA+a0ylPvfmIr7Mv1m+iHTOvqJWXj5yDgy/CUM+PgngRz2Vcgk+P2jzPtCTAj9D3LK+smJbPmG/Sj6IGow9GLUBP0oWnT46lSA+icc4P4VW/z6hOfS7RCruPoEDqz7yxAM/Esf7Pdifs70GSBO+xT+0vSff7z1xF66+GClFvgTilTwaty8/LRhWP2UUQz/JSE0/OAi4vpfjCz+xZ1C+9HySvUyyvz18GvU+r89CP7sWv7790A8+ApAfP5tpSj/3yCq+LZ7cvmmjeD+5Xf2+0nOBvsMKJT5aJFc/IftevuxCFr9MKwU//pxLP355BT8VfFM+lvxDv2dGSz3yrhq/9CjDvn2lG79GZCu/VaQMPdUdiTxr7+O+X24Bv0+Y6b71/ua+7fGfvr+PQr0per++q+E5vSIoKr/OOcO+SGPsvbOC4D0kK9w9Hmu4PqL2Lj/VyJ49WtXSvmMzAj8IbWE+VigyPh+60T5Y00c/zl+DPtI8zb7HHyC9/fi+PpF3sD7vrFu+bnGpPsUScT5JKxm+b+cRviF3Gj+pTw0+j6MyvysBoT6RjZ4+5as3PgJ72z607oK+gFlpPYP5Qz4dB7k95QcNPupwcr5R3xS+bA17vnzLIz0bPPu9ALItvj3acr+Fo9c+DXBsvVTFAb+yW5y/rG8ov+PtLz8MVke+2o9dv9CoOL8lItM84pGEP3R9OD/dlie9iCAUPy/ch764c7I99oOQvow91D4FD1w9tNR5PypAPb/dGUU+4J7HPipjQD4684e+HSFGv68kgL4aVIQ+2NwPv9zc5b5+xCQ/8e+1PsluPr/NC/E9w3mAv46x1T5ibJ++MxOMvht1ej9GOV4/D1AmPo1yAb88wEk/ZjVhPuJawDwJPHK/qjaavTFYdr+ALLO9aMrWvgKRCbzBMY8/atL0vrMJFz9K0kC+yRaRvnX43r6J5TO/Q2/lvuZMRT/8xR2/4B61veV1WD9BzoE9GBcbPoClMD0TGyM+BmQJPeYb+D3MjYQ9FklZvs8mu77PSDk/OaWfPjT5Wr5VrAC/8tmfPxTNOz/xmeK6yho1vyB4Bb/KP4M8JtUpPpjoYD5/mwI/aqgfPo4snL7bZea+fpA5PwShYL8uzH0+tapfP/FEAL+WVGs+0E8pP01lMT8ry/k6smqlvtABQT7RI4M+0xOfPvTTYj9lgve+O1M2vyQQ977/m4C/G4gav7ylVb8xe4u98qHPu6dUP78QpEq+C+tYP5KmID93/QK/oHp6vrkYYz9fHlk+H2x2vzyJ/b6FcFM/vQCcPj7Iab909zO/uLjVvWR+8D7ng3i+tk+6viHh6b46pL4+Vm/NPdTiU719a0w9kCXivg==","tensorflowjs_models/localStorage://model/model_metadata":"{\"format\":\"layers-model\",\"generatedBy\":\"TensorFlow.js tfjs-layers v1.4.0\",\"convertedBy\":null}"}